static unsigned char hello_world_float_tflite[] = {
    0x1c, 0x00, 0x00, 0x00, 0x54, 0x46, 0x4c, 0x33, 0x14, 0x00, 0x20, 0x00, 0x1c, 0x00, 0x18, 0x00, 0x14, 0x00, 0x10,
    0x00, 0x0c, 0x00, 0x00, 0x00, 0x08, 0x00, 0x04, 0x00, 0x14, 0x00, 0x00, 0x00, 0x1c, 0x00, 0x00, 0x00, 0x90, 0x00,
    0x00, 0x00, 0xe8, 0x00, 0x00, 0x00, 0x00, 0x07, 0x00, 0x00, 0x10, 0x07, 0x00, 0x00, 0x08, 0x0c, 0x00, 0x00, 0x03,
    0x00, 0x00, 0x00, 0x01, 0x00, 0x00, 0x00, 0x10, 0x00, 0x00, 0x00, 0x00, 0x00, 0x0a, 0x00, 0x10, 0x00, 0x0c, 0x00,
    0x08, 0x00, 0x04, 0x00, 0x0a, 0x00, 0x00, 0x00, 0x0c, 0x00, 0x00, 0x00, 0x1c, 0x00, 0x00, 0x00, 0x38, 0x00, 0x00,
    0x00, 0x0f, 0x00, 0x00, 0x00, 0x73, 0x65, 0x72, 0x76, 0x69, 0x6e, 0x67, 0x5f, 0x64, 0x65, 0x66, 0x61, 0x75, 0x6c,
    0x74, 0x00, 0x01, 0x00, 0x00, 0x00, 0x04, 0x00, 0x00, 0x00, 0x98, 0xff, 0xff, 0xff, 0x09, 0x00, 0x00, 0x00, 0x04,
    0x00, 0x00, 0x00, 0x07, 0x00, 0x00, 0x00, 0x64, 0x65, 0x6e, 0x73, 0x65, 0x5f, 0x32, 0x00, 0x01, 0x00, 0x00, 0x00,
    0x04, 0x00, 0x00, 0x00, 0xca, 0xf9, 0xff, 0xff, 0x04, 0x00, 0x00, 0x00, 0x0b, 0x00, 0x00, 0x00, 0x64, 0x65, 0x6e,
    0x73, 0x65, 0x5f, 0x69, 0x6e, 0x70, 0x75, 0x74, 0x00, 0x02, 0x00, 0x00, 0x00, 0x34, 0x00, 0x00, 0x00, 0x04, 0x00,
    0x00, 0x00, 0xdc, 0xff, 0xff, 0xff, 0x0c, 0x00, 0x00, 0x00, 0x04, 0x00, 0x00, 0x00, 0x13, 0x00, 0x00, 0x00, 0x43,
    0x4f, 0x4e, 0x56, 0x45, 0x52, 0x53, 0x49, 0x4f, 0x4e, 0x5f, 0x4d, 0x45, 0x54, 0x41, 0x44, 0x41, 0x54, 0x41, 0x00,
    0x08, 0x00, 0x0c, 0x00, 0x08, 0x00, 0x04, 0x00, 0x08, 0x00, 0x00, 0x00, 0x0b, 0x00, 0x00, 0x00, 0x04, 0x00, 0x00,
    0x00, 0x13, 0x00, 0x00, 0x00, 0x6d, 0x69, 0x6e, 0x5f, 0x72, 0x75, 0x6e, 0x74, 0x69, 0x6d, 0x65, 0x5f, 0x76, 0x65,
    0x72, 0x73, 0x69, 0x6f, 0x6e, 0x00, 0x0d, 0x00, 0x00, 0x00, 0x14, 0x06, 0x00, 0x00, 0x0c, 0x06, 0x00, 0x00, 0xbc,
    0x05, 0x00, 0x00, 0xa0, 0x05, 0x00, 0x00, 0x50, 0x05, 0x00, 0x00, 0x00, 0x05, 0x00, 0x00, 0xf0, 0x00, 0x00, 0x00,
    0xa0, 0x00, 0x00, 0x00, 0x98, 0x00, 0x00, 0x00, 0x90, 0x00, 0x00, 0x00, 0x88, 0x00, 0x00, 0x00, 0x68, 0x00, 0x00,
    0x00, 0x04, 0x00, 0x00, 0x00, 0x76, 0xfa, 0xff, 0xff, 0x04, 0x00, 0x00, 0x00, 0x54, 0x00, 0x00, 0x00, 0x0c, 0x00,
    0x00, 0x00, 0x08, 0x00, 0x0e, 0x00, 0x08, 0x00, 0x04, 0x00, 0x08, 0x00, 0x00, 0x00, 0x10, 0x00, 0x00, 0x00, 0x24,
    0x00, 0x00, 0x00, 0x00, 0x00, 0x06, 0x00, 0x08, 0x00, 0x04, 0x00, 0x06, 0x00, 0x00, 0x00, 0x04, 0x00, 0x00, 0x00,
    0x00, 0x00, 0x00, 0x00, 0x00, 0x00, 0x0a, 0x00, 0x10, 0x00, 0x0c, 0x00, 0x08, 0x00, 0x04, 0x00, 0x0a, 0x00, 0x00,
    0x00, 0x02, 0x00, 0x00, 0x00, 0x02, 0x00, 0x00, 0x00, 0x04, 0x00, 0x00, 0x00, 0x06, 0x00, 0x00, 0x00, 0x32, 0x2e,
    0x31, 0x33, 0x2e, 0x31, 0x00, 0x00, 0xd6, 0xfa, 0xff, 0xff, 0x04, 0x00, 0x00, 0x00, 0x10, 0x00, 0x00, 0x00, 0x31,
    0x2e, 0x35, 0x2e, 0x30, 0x00, 0x00, 0x00, 0x00, 0x00, 0x00, 0x00, 0x00, 0x00, 0x00, 0x00, 0xc0, 0xf5, 0xff, 0xff,
    0xc4, 0xf5, 0xff, 0xff, 0xc8, 0xf5, 0xff, 0xff, 0xfe, 0xfa, 0xff, 0xff, 0x04, 0x00, 0x00, 0x00, 0x40, 0x00, 0x00,
    0x00, 0x44, 0xdf, 0xba, 0x3e, 0xfb, 0x41, 0xeb, 0x3e, 0x84, 0x18, 0x3d, 0xbf, 0x72, 0xa6, 0x66, 0x3f, 0xcc, 0xb3,
    0x3a, 0x3d, 0x76, 0xa2, 0x9c, 0xbf, 0x27, 0xe4, 0x51, 0xbf, 0x17, 0xed, 0xa3, 0xbd, 0xc8, 0x00, 0xef, 0x3d, 0x2a,
    0xa9, 0xb8, 0x3e, 0x7a, 0x5b, 0x96, 0x3f, 0x5d, 0x4e, 0x78, 0xbf, 0x59, 0x84, 0x84, 0x3f, 0x63, 0xa0, 0x91, 0x3e,
    0xd9, 0x35, 0x80, 0x3e, 0xed, 0xba, 0xb5, 0xbe, 0x4a, 0xfb, 0xff, 0xff, 0x04, 0x00, 0x00, 0x00, 0x00, 0x04, 0x00,
    0x00, 0xc4, 0xe0, 0x9b, 0xbd, 0x7c, 0x13, 0xdc, 0xbe, 0x63, 0xcf, 0xa2, 0x3e, 0x07, 0xfd, 0x87, 0x3e, 0xe8, 0xe1,
    0x1c, 0x3e, 0x9a, 0x0b, 0x6b, 0xbd, 0xbe, 0x1a, 0xcd, 0xbe, 0xf3, 0xe5, 0xec, 0xbe, 0x91, 0x2d, 0xad, 0x3d, 0xf0,
    0xa5, 0xc1, 0x3e, 0x34, 0x3c, 0x82, 0xbe, 0xd4, 0x50, 0xd9, 0xbd, 0x31, 0x01, 0x27, 0xbf, 0xc3, 0xbb, 0xc7, 0x3e,
    0x52, 0xff, 0x24, 0xbf, 0xcb, 0x8e, 0x90, 0x3e, 0x14, 0xdc, 0xb5, 0xbe, 0xa0, 0x85, 0x9d, 0x3c, 0xac, 0xcd, 0x38,
    0x3e, 0x6c, 0xda, 0x92, 0xbe, 0xfc, 0x70, 0x7a, 0xbe, 0xd7, 0xaa, 0x92, 0x3e, 0xe7, 0x87, 0x72, 0xbe, 0x76, 0xe6,
    0xf9, 0xbe, 0xea, 0x84, 0x75, 0x3e, 0x7f, 0x2e, 0xdd, 0x3d, 0xde, 0xc1, 0x2d, 0x3e, 0x2d, 0xeb, 0xd6, 0x3e, 0xc6,
    0x45, 0x07, 0xc0, 0x20, 0x75, 0x13, 0x3c, 0x4c, 0x41, 0x8a, 0xbf, 0x2e, 0x27, 0x92, 0xbe, 0xd9, 0xea, 0x82, 0x3e,
    0x34, 0x6e, 0xf9, 0x3d, 0x98, 0xb8, 0xad, 0xbe, 0x6e, 0x70, 0x8e, 0xbe, 0x5e, 0xe6, 0xf6, 0xbe, 0x98, 0xa4, 0xf4,
    0x3e, 0x9b, 0x57, 0xa6, 0xbe, 0xac, 0x20, 0x50, 0xbf, 0x64, 0xab, 0x72, 0x3f, 0xc3, 0xa1, 0x09, 0x3b, 0x23, 0xc7,
    0x1d, 0xbe, 0xe0, 0xd3, 0xb7, 0xbe, 0xe1, 0xb0, 0x9b, 0x3e, 0x49, 0xa9, 0xa4, 0x3e, 0xa3, 0xc4, 0xc8, 0x3d, 0xc7,
    0xef, 0xd1, 0xbe, 0x00, 0x80, 0x26, 0xb7, 0x04, 0x68, 0x95, 0x3d, 0x3a, 0x28, 0x5c, 0x3f, 0xaa, 0xd2, 0x74, 0x3e,
    0x8c, 0x5d, 0xc5, 0xbe, 0xc3, 0xee, 0x49, 0xbe, 0x69, 0x6f, 0x65, 0xbe, 0x26, 0x4e, 0x55, 0xbf, 0x2a, 0xd5, 0x37,
    0x3e, 0x7c, 0x56, 0x0f, 0x3f, 0x34, 0x10, 0x8b, 0xbe, 0x06, 0x40, 0x11, 0x3e, 0x4a, 0x76, 0xd3, 0xbd, 0x1e, 0x49,
    0x0a, 0x3e, 0x8e, 0xf2, 0x32, 0xbf, 0xaa, 0x1d, 0x67, 0x3e, 0x44, 0x45, 0xe0, 0xbd, 0x3c, 0x18, 0x99, 0x3d, 0xec,
    0x8f, 0x20, 0x3e, 0x8b, 0x7a, 0xd7, 0x3e, 0x19, 0xb9, 0x8c, 0xbe, 0x54, 0x08, 0xa1, 0xbc, 0x9c, 0x43, 0xfe, 0x3d,
    0x11, 0xd4, 0x78, 0xbe, 0x12, 0xaa, 0xac, 0x3e, 0xfb, 0x92, 0x8b, 0xbe, 0x26, 0xcb, 0xb5, 0x3d, 0x5a, 0xdb, 0x15,
    0x3e, 0x99, 0xf7, 0xc4, 0x3d, 0x01, 0x3b, 0xc1, 0xbe, 0x9e, 0x8a, 0x4d, 0xbe, 0x1b, 0xc1, 0x83, 0x3e, 0x72, 0x21,
    0xc9, 0xbe, 0xe3, 0x67, 0xa4, 0x3e, 0xb3, 0x6e, 0x04, 0x3f, 0x0b, 0x76, 0xb9, 0x3e, 0xf2, 0x4d, 0x9e, 0xbd, 0xdc,
    0x4f, 0xfe, 0xbc, 0xae, 0x0f, 0x01, 0x3e, 0x27, 0x57, 0x9e, 0xbe, 0x2d, 0x86, 0xc1, 0x3d, 0xf2, 0x04, 0x15, 0x3f,
    0x84, 0xa5, 0x17, 0xbe, 0x30, 0x54, 0xc1, 0xbe, 0xb8, 0x76, 0x03, 0xbf, 0x18, 0xf4, 0x3d, 0xbd, 0x04, 0x10, 0x88,
    0xbf, 0x8c, 0x5a, 0x72, 0xbe, 0x8b, 0x31, 0x65, 0xbe, 0x1a, 0x17, 0x03, 0x3e, 0x08, 0x75, 0x3b, 0x3f, 0x13, 0x83,
    0xc9, 0x3e, 0x31, 0xa9, 0x08, 0xbe, 0x65, 0x67, 0xe9, 0xbe, 0xd4, 0xb1, 0xd1, 0xbe, 0x1c, 0xe7, 0xc9, 0x3d, 0xfe,
    0x94, 0x08, 0xbf, 0x3a, 0x7f, 0xa2, 0xbe, 0xaa, 0x73, 0xea, 0x3e, 0xdc, 0x6b, 0xa0, 0xbe, 0x54, 0x82, 0x04, 0x3f,
    0x60, 0x74, 0x5b, 0xbc, 0xc8, 0x7e, 0x12, 0x3d, 0x56, 0xce, 0x63, 0x3e, 0xf4, 0x93, 0x9b, 0xbe, 0x78, 0x7a, 0x7a,
    0xbd, 0xcc, 0x5b, 0x84, 0xbd, 0x18, 0xec, 0xbb, 0xbd, 0x56, 0xe7, 0x40, 0xbe, 0x9c, 0xb7, 0xf1, 0xbe, 0xd5, 0xf7,
    0xd9, 0x3e, 0x35, 0x38, 0x61, 0xbe, 0x49, 0x89, 0x73, 0x3e, 0x2a, 0xdb, 0xe4, 0x3e, 0x26, 0xce, 0x86, 0x3e, 0x1d,
    0xdc, 0xb7, 0xbe, 0x5b, 0x44, 0x94, 0xbc, 0xd9, 0xaa, 0x9e, 0x3e, 0x09, 0xa9, 0xa5, 0xbe, 0xa4, 0xc7, 0x86, 0xbe,
    0xa1, 0xd4, 0x4b, 0xbe, 0xcd, 0x11, 0xd3, 0xbe, 0xbf, 0x00, 0x77, 0x3e, 0xb1, 0x71, 0xd7, 0xbe, 0x64, 0x0a, 0xa6,
    0xc0, 0x43, 0x50, 0x9b, 0x3d, 0x28, 0x00, 0x08, 0xbd, 0xc0, 0x63, 0x30, 0x3d, 0x5b, 0xf8, 0x88, 0x3f, 0x97, 0xe4,
    0x85, 0x3d, 0x6e, 0x55, 0x12, 0xc0, 0xfa, 0x1a, 0xa5, 0xbe, 0x78, 0x9f, 0x3d, 0xbf, 0x0e, 0x90, 0x47, 0x3e, 0x18,
    0x2b, 0x7e, 0xbd, 0x95, 0x4c, 0xc8, 0x3e, 0xe8, 0xac, 0x01, 0x3d, 0x80, 0x52, 0xe6, 0xbb, 0x3f, 0x27, 0x31, 0x3c,
    0x44, 0x87, 0xb9, 0xbe, 0x44, 0x16, 0xcf, 0xbe, 0x2d, 0xce, 0xe7, 0xbe, 0x72, 0xec, 0x27, 0xbe, 0x1c, 0x98, 0xcd,
    0xbe, 0xd8, 0x34, 0xf5, 0xbe, 0xd0, 0xc9, 0x61, 0x3e, 0xb8, 0x7e, 0xa2, 0xbd, 0xe5, 0x3e, 0xb5, 0xbe, 0x2d, 0xc1,
    0x9d, 0x3e, 0xe0, 0x24, 0x07, 0xbc, 0xca, 0xc0, 0x80, 0xbe, 0xec, 0x1c, 0x8b, 0x3d, 0x8f, 0x6a, 0xbf, 0xbe, 0xd0,
    0xa8, 0xc7, 0x3c, 0x52, 0x45, 0xf2, 0x3e, 0x55, 0xbd, 0xbd, 0x3e, 0x04, 0x2a, 0x73, 0xbe, 0x80, 0x7c, 0x5d, 0x3d,
    0x16, 0xe2, 0x03, 0x3e, 0x0b, 0x98, 0x17, 0xbf, 0x70, 0xca, 0x93, 0xbd, 0x15, 0xe3, 0x08, 0x3f, 0xff, 0xa2, 0xd0,
    0xbe, 0x42, 0x6e, 0x91, 0xbe, 0xd2, 0xe2, 0xa1, 0xbe, 0x38, 0x96, 0x3c, 0xbd, 0xea, 0x7b, 0x10, 0xbf, 0xbc, 0x38,
    0xd1, 0xbe, 0x1e, 0x87, 0x8a, 0xbe, 0xd7, 0x6a, 0xac, 0x3e, 0xcf, 0xc8, 0x54, 0x3f, 0xeb, 0xe6, 0x9e, 0xbe, 0xfa,
    0x7f, 0x7a, 0x3e, 0x79, 0x19, 0x87, 0xbf, 0xf4, 0xd9, 0x84, 0x3d, 0x16, 0xa5, 0xb5, 0xbe, 0xc3, 0x35, 0x19, 0xbf,
    0xae, 0xa9, 0xcd, 0xbd, 0xac, 0xcc, 0xab, 0xbe, 0x14, 0x1e, 0xe0, 0xbd, 0x17, 0x88, 0x7f, 0x3f, 0x36, 0x30, 0x24,
    0x3e, 0x5b, 0x8a, 0x8c, 0x3d, 0xab, 0xdc, 0xa2, 0xbe, 0x38, 0x53, 0x71, 0xbd, 0xdf, 0x88, 0xa3, 0x3e, 0x10, 0x7b,
    0x4f, 0xbe, 0x80, 0x00, 0x95, 0xbc, 0x5a, 0x56, 0x01, 0x3f, 0x11, 0x2e, 0xbe, 0xbe, 0x60, 0x5f, 0x00, 0x3d, 0xd0,
    0xb5, 0xfe, 0x3e, 0x72, 0x2e, 0xe5, 0x3d, 0xd8, 0xe0, 0xb7, 0xbd, 0xa2, 0x77, 0x75, 0x3b, 0x08, 0x9f, 0x2d, 0xbd,
    0xa7, 0x43, 0xcf, 0xbd, 0xb7, 0x4d, 0xd8, 0x3e, 0xc0, 0x61, 0x22, 0x3f, 0xfe, 0xb4, 0x5f, 0x3e, 0x40, 0x68, 0xb9,
    0x3b, 0xa0, 0x1d, 0x00, 0xbc, 0x84, 0x52, 0xbb, 0x3d, 0xdc, 0x08, 0xc0, 0x3d, 0x5f, 0x1f, 0x74, 0xbe, 0xe4, 0xf0,
    0x8b, 0x3e, 0xec, 0x9e, 0x6a, 0xbe, 0x40, 0x2e, 0x2f, 0x3d, 0x86, 0x9d, 0x79, 0x3c, 0xc8, 0xdd, 0x3d, 0xbe, 0xf9,
    0x80, 0xb7, 0xbe, 0x96, 0x40, 0x4e, 0x3e, 0xd4, 0x98, 0x9d, 0x3e, 0x2e, 0x20, 0x68, 0x3e, 0xc8, 0x53, 0x4b, 0xbe,
    0x12, 0xc8, 0x2a, 0x3e, 0x62, 0x23, 0x2f, 0x3e, 0xb7, 0x1a, 0x9c, 0xbe, 0x2b, 0xf4, 0xed, 0xbe, 0x96, 0x86, 0x64,
    0x3e, 0x6e, 0xb2, 0x50, 0xbf, 0x25, 0x3b, 0x69, 0x3e, 0x4c, 0x62, 0x77, 0xbe, 0xdf, 0x33, 0xbe, 0xbe, 0x90, 0xe0,
    0x6c, 0x3e, 0x70, 0xc5, 0xa3, 0x3e, 0xab, 0x47, 0x4d, 0xbf, 0xfc, 0x51, 0xd7, 0x3d, 0x90, 0x5b, 0xdf, 0xbe, 0xf0,
    0x6d, 0x59, 0x3d, 0xe0, 0xf9, 0x1d, 0x3d, 0x74, 0x94, 0x8b, 0xbe, 0x53, 0xe9, 0xad, 0x3e, 0x6c, 0x56, 0x9d, 0x3d,
    0x54, 0x24, 0x90, 0xbe, 0x8e, 0xeb, 0x61, 0x3e, 0xa0, 0x37, 0x7e, 0x3c, 0x20, 0x1f, 0xdf, 0x3c, 0xce, 0xc9, 0x00,
    0x3e, 0x02, 0xdf, 0x3f, 0x3e, 0xa7, 0xe0, 0xa3, 0x3e, 0xa4, 0x60, 0x10, 0xbe, 0x53, 0xe2, 0xc1, 0xbe, 0x9c, 0x75,
    0xd3, 0x3d, 0xa6, 0xf5, 0x13, 0x3e, 0xf0, 0x04, 0xd7, 0xbe, 0x00, 0xc8, 0x93, 0xbd, 0x72, 0x3b, 0x9c, 0xbe, 0x56,
    0xff, 0xff, 0xff, 0x04, 0x00, 0x00, 0x00, 0x40, 0x00, 0x00, 0x00, 0xc8, 0xcf, 0x6d, 0xbe, 0x3c, 0x00, 0xb5, 0xbe,
    0x10, 0xec, 0x01, 0xbd, 0x29, 0x05, 0xfd, 0xbe, 0xae, 0x59, 0x08, 0x3f, 0x0a, 0x55, 0x94, 0x3e, 0x82, 0x1e, 0xdc,
    0xbe, 0x10, 0x91, 0x8f, 0x3e, 0x79, 0xb6, 0x93, 0x3d, 0x1b, 0xef, 0xcc, 0x3e, 0x9c, 0xe1, 0x6c, 0x3e, 0x00, 0x77,
    0xa4, 0xbc, 0x77, 0x26, 0x09, 0x3e, 0xf5, 0x66, 0xd4, 0xbe, 0x23, 0x4e, 0x9e, 0x3e, 0x50, 0x26, 0x58, 0xbd, 0xa2,
    0xff, 0xff, 0xff, 0x04, 0x00, 0x00, 0x00, 0x40, 0x00, 0x00, 0x00, 0x00, 0x00, 0x00, 0x00, 0x00, 0x00, 0x00, 0x00,
    0x95, 0xa0, 0xdb, 0x3e, 0x00, 0x00, 0x00, 0x00, 0xb0, 0x90, 0x16, 0xbf, 0x76, 0xa1, 0x16, 0x3e, 0x00, 0x00, 0x00,
    0x00, 0x30, 0xda, 0x04, 0xbf, 0xf4, 0x51, 0xc7, 0x39, 0x27, 0x66, 0x51, 0x3f, 0x41, 0x78, 0x3e, 0xbe, 0x00, 0x00,
    0x00, 0x00, 0xa4, 0xb9, 0xb9, 0xbe, 0x00, 0x00, 0x00, 0x00, 0x8d, 0xfb, 0x3c, 0xbf, 0x00, 0x00, 0x00, 0x00, 0xee,
    0xff, 0xff, 0xff, 0x04, 0x00, 0x00, 0x00, 0x04, 0x00, 0x00, 0x00, 0x0f, 0x27, 0xb4, 0xbe, 0x00, 0x00, 0x06, 0x00,
    0x08, 0x00, 0x04, 0x00, 0x06, 0x00, 0x00, 0x00, 0x04, 0x00, 0x00, 0x00, 0x40, 0x00, 0x00, 0x00, 0x03, 0x98, 0x33,
    0x3e, 0x21, 0x9f, 0x01, 0x3f, 0x38, 0x13, 0xfe, 0xbc, 0x8c, 0xd4, 0x37, 0x3f, 0xce, 0xc6, 0xa4, 0xbc, 0xa4, 0x38,
    0x48, 0x3f, 0x8d, 0x3c, 0xd0, 0x3e, 0xde, 0x6c, 0x57, 0x3e, 0xe9, 0x00, 0x06, 0xbe, 0xd8, 0xa5, 0x04, 0xbe, 0xda,
    0x7b, 0xd1, 0x3e, 0xed, 0x1c, 0x0b, 0x3f, 0x98, 0x67, 0x48, 0xbf, 0xcc, 0x2e, 0x8a, 0xbd, 0x72, 0xf5, 0xc3, 0xbd,
    0x00, 0x00, 0x00, 0x00, 0x20, 0xfb, 0xff, 0xff, 0x24, 0xfb, 0xff, 0xff, 0x0f, 0x00, 0x00, 0x00, 0x4d, 0x4c, 0x49,
    0x52, 0x20, 0x43, 0x6f, 0x6e, 0x76, 0x65, 0x72, 0x74, 0x65, 0x64, 0x2e, 0x00, 0x01, 0x00, 0x00, 0x00, 0x14, 0x00,
    0x00, 0x00, 0x00, 0x00, 0x0e, 0x00, 0x18, 0x00, 0x14, 0x00, 0x10, 0x00, 0x0c, 0x00, 0x08, 0x00, 0x04, 0x00, 0x0e,
    0x00, 0x00, 0x00, 0x14, 0x00, 0x00, 0x00, 0x1c, 0x00, 0x00, 0x00, 0xd8, 0x00, 0x00, 0x00, 0xdc, 0x00, 0x00, 0x00,
    0xe0, 0x00, 0x00, 0x00, 0x04, 0x00, 0x00, 0x00, 0x6d, 0x61, 0x69, 0x6e, 0x00, 0x00, 0x00, 0x00, 0x03, 0x00, 0x00,
    0x00, 0x80, 0x00, 0x00, 0x00, 0x38, 0x00, 0x00, 0x00, 0x04, 0x00, 0x00, 0x00, 0x9a, 0xff, 0xff, 0xff, 0x10, 0x00,
    0x00, 0x00, 0x00, 0x00, 0x00, 0x08, 0x0c, 0x00, 0x00, 0x00, 0x10, 0x00, 0x00, 0x00, 0x9c, 0xfb, 0xff, 0xff, 0x01,
    0x00, 0x00, 0x00, 0x09, 0x00, 0x00, 0x00, 0x03, 0x00, 0x00, 0x00, 0x08, 0x00, 0x00, 0x00, 0x06, 0x00, 0x00, 0x00,
    0x02, 0x00, 0x00, 0x00, 0xca, 0xff, 0xff, 0xff, 0x10, 0x00, 0x00, 0x00, 0x00, 0x00, 0x00, 0x08, 0x10, 0x00, 0x00,
    0x00, 0x14, 0x00, 0x00, 0x00, 0xba, 0xff, 0xff, 0xff, 0x00, 0x00, 0x00, 0x01, 0x01, 0x00, 0x00, 0x00, 0x08, 0x00,
    0x00, 0x00, 0x03, 0x00, 0x00, 0x00, 0x07, 0x00, 0x00, 0x00, 0x05, 0x00, 0x00, 0x00, 0x01, 0x00, 0x00, 0x00, 0x00,
    0x00, 0x0e, 0x00, 0x16, 0x00, 0x00, 0x00, 0x10, 0x00, 0x0c, 0x00, 0x0b, 0x00, 0x04, 0x00, 0x0e, 0x00, 0x00, 0x00,
    0x18, 0x00, 0x00, 0x00, 0x00, 0x00, 0x00, 0x08, 0x18, 0x00, 0x00, 0x00, 0x1c, 0x00, 0x00, 0x00, 0x00, 0x00, 0x06,
    0x00, 0x08, 0x00, 0x07, 0x00, 0x06, 0x00, 0x00, 0x00, 0x00, 0x00, 0x00, 0x01, 0x01, 0x00, 0x00, 0x00, 0x07, 0x00,
    0x00, 0x00, 0x03, 0x00, 0x00, 0x00, 0x00, 0x00, 0x00, 0x00, 0x04, 0x00, 0x00, 0x00, 0x03, 0x00, 0x00, 0x00, 0x01,
    0x00, 0x00, 0x00, 0x09, 0x00, 0x00, 0x00, 0x01, 0x00, 0x00, 0x00, 0x00, 0x00, 0x00, 0x00, 0x0a, 0x00, 0x00, 0x00,
    0x8c, 0x03, 0x00, 0x00, 0x1c, 0x03, 0x00, 0x00, 0xac, 0x02, 0x00, 0x00, 0x58, 0x02, 0x00, 0x00, 0x10, 0x02, 0x00,
    0x00, 0xc4, 0x01, 0x00, 0x00, 0x78, 0x01, 0x00, 0x00, 0xf0, 0x00, 0x00, 0x00, 0x60, 0x00, 0x00, 0x00, 0x04, 0x00,
    0x00, 0x00, 0xb2, 0xfc, 0xff, 0xff, 0x00, 0x00, 0x00, 0x01, 0x14, 0x00, 0x00, 0x00, 0x1c, 0x00, 0x00, 0x00, 0x1c,
    0x00, 0x00, 0x00, 0x0a, 0x00, 0x00, 0x00, 0x34, 0x00, 0x00, 0x00, 0x02, 0x00, 0x00, 0x00, 0xff, 0xff, 0xff, 0xff,
    0x01, 0x00, 0x00, 0x00, 0x9c, 0xfc, 0xff, 0xff, 0x19, 0x00, 0x00, 0x00, 0x53, 0x74, 0x61, 0x74, 0x65, 0x66, 0x75,
    0x6c, 0x50, 0x61, 0x72, 0x74, 0x69, 0x74, 0x69, 0x6f, 0x6e, 0x65, 0x64, 0x43, 0x61, 0x6c, 0x6c, 0x3a, 0x30, 0x00,
    0x00, 0x00, 0x02, 0x00, 0x00, 0x00, 0x01, 0x00, 0x00, 0x00, 0x01, 0x00, 0x00, 0x00, 0x0a, 0xfd, 0xff, 0xff, 0x00,
    0x00, 0x00, 0x01, 0x14, 0x00, 0x00, 0x00, 0x1c, 0x00, 0x00, 0x00, 0x1c, 0x00, 0x00, 0x00, 0x09, 0x00, 0x00, 0x00,
    0x68, 0x00, 0x00, 0x00, 0x02, 0x00, 0x00, 0x00, 0xff, 0xff, 0xff, 0xff, 0x10, 0x00, 0x00, 0x00, 0xf4, 0xfc, 0xff,
    0xff, 0x4c, 0x00, 0x00, 0x00, 0x73, 0x65, 0x71, 0x75, 0x65, 0x6e, 0x74, 0x69, 0x61, 0x6c, 0x2f, 0x64, 0x65, 0x6e,
    0x73, 0x65, 0x5f, 0x31, 0x2f, 0x4d, 0x61, 0x74, 0x4d, 0x75, 0x6c, 0x3b, 0x73, 0x65, 0x71, 0x75, 0x65, 0x6e, 0x74,
    0x69, 0x61, 0x6c, 0x2f, 0x64, 0x65, 0x6e, 0x73, 0x65, 0x5f, 0x31, 0x2f, 0x52, 0x65, 0x6c, 0x75, 0x3b, 0x73, 0x65,
    0x71, 0x75, 0x65, 0x6e, 0x74, 0x69, 0x61, 0x6c, 0x2f, 0x64, 0x65, 0x6e, 0x73, 0x65, 0x5f, 0x31, 0x2f, 0x42, 0x69,
    0x61, 0x73, 0x41, 0x64, 0x64, 0x00, 0x00, 0x00, 0x00, 0x02, 0x00, 0x00, 0x00, 0x01, 0x00, 0x00, 0x00, 0x10, 0x00,
    0x00, 0x00, 0x96, 0xfd, 0xff, 0xff, 0x00, 0x00, 0x00, 0x01, 0x14, 0x00, 0x00, 0x00, 0x1c, 0x00, 0x00, 0x00, 0x1c,
    0x00, 0x00, 0x00, 0x08, 0x00, 0x00, 0x00, 0x60, 0x00, 0x00, 0x00, 0x02, 0x00, 0x00, 0x00, 0xff, 0xff, 0xff, 0xff,
    0x10, 0x00, 0x00, 0x00, 0x80, 0xfd, 0xff, 0xff, 0x46, 0x00, 0x00, 0x00, 0x73, 0x65, 0x71, 0x75, 0x65, 0x6e, 0x74,
    0x69, 0x61, 0x6c, 0x2f, 0x64, 0x65, 0x6e, 0x73, 0x65, 0x2f, 0x4d, 0x61, 0x74, 0x4d, 0x75, 0x6c, 0x3b, 0x73, 0x65,
    0x71, 0x75, 0x65, 0x6e, 0x74, 0x69, 0x61, 0x6c, 0x2f, 0x64, 0x65, 0x6e, 0x73, 0x65, 0x2f, 0x52, 0x65, 0x6c, 0x75,
    0x3b, 0x73, 0x65, 0x71, 0x75, 0x65, 0x6e, 0x74, 0x69, 0x61, 0x6c, 0x2f, 0x64, 0x65, 0x6e, 0x73, 0x65, 0x2f, 0x42,
    0x69, 0x61, 0x73, 0x41, 0x64, 0x64, 0x00, 0x00, 0x02, 0x00, 0x00, 0x00, 0x01, 0x00, 0x00, 0x00, 0x10, 0x00, 0x00,
    0x00, 0x86, 0xfe, 0xff, 0xff, 0x00, 0x00, 0x00, 0x01, 0x10, 0x00, 0x00, 0x00, 0x10, 0x00, 0x00, 0x00, 0x07, 0x00,
    0x00, 0x00, 0x28, 0x00, 0x00, 0x00, 0xf4, 0xfd, 0xff, 0xff, 0x19, 0x00, 0x00, 0x00, 0x73, 0x65, 0x71, 0x75, 0x65,
    0x6e, 0x74, 0x69, 0x61, 0x6c, 0x2f, 0x64, 0x65, 0x6e, 0x73, 0x65, 0x5f, 0x32, 0x2f, 0x4d, 0x61, 0x74, 0x4d, 0x75,
    0x6c, 0x00, 0x00, 0x00, 0x02, 0x00, 0x00, 0x00, 0x01, 0x00, 0x00, 0x00, 0x10, 0x00, 0x00, 0x00, 0xce, 0xfe, 0xff,
    0xff, 0x00, 0x00, 0x00, 0x01, 0x10, 0x00, 0x00, 0x00, 0x10, 0x00, 0x00, 0x00, 0x06, 0x00, 0x00, 0x00, 0x28, 0x00,
    0x00, 0x00, 0x3c, 0xfe, 0xff, 0xff, 0x19, 0x00, 0x00, 0x00, 0x73, 0x65, 0x71, 0x75, 0x65, 0x6e, 0x74, 0x69, 0x61,
    0x6c, 0x2f, 0x64, 0x65, 0x6e, 0x73, 0x65, 0x5f, 0x31, 0x2f, 0x4d, 0x61, 0x74, 0x4d, 0x75, 0x6c, 0x00, 0x00, 0x00,
    0x02, 0x00, 0x00, 0x00, 0x10, 0x00, 0x00, 0x00, 0x10, 0x00, 0x00, 0x00, 0x16, 0xff, 0xff, 0xff, 0x00, 0x00, 0x00,
    0x01, 0x10, 0x00, 0x00, 0x00, 0x10, 0x00, 0x00, 0x00, 0x05, 0x00, 0x00, 0x00, 0x24, 0x00, 0x00, 0x00, 0x84, 0xfe,
    0xff, 0xff, 0x17, 0x00, 0x00, 0x00, 0x73, 0x65, 0x71, 0x75, 0x65, 0x6e, 0x74, 0x69, 0x61, 0x6c, 0x2f, 0x64, 0x65,
    0x6e, 0x73, 0x65, 0x2f, 0x4d, 0x61, 0x74, 0x4d, 0x75, 0x6c, 0x00, 0x02, 0x00, 0x00, 0x00, 0x10, 0x00, 0x00, 0x00,
    0x01, 0x00, 0x00, 0x00, 0x5a, 0xff, 0xff, 0xff, 0x00, 0x00, 0x00, 0x01, 0x10, 0x00, 0x00, 0x00, 0x10, 0x00, 0x00,
    0x00, 0x04, 0x00, 0x00, 0x00, 0x34, 0x00, 0x00, 0x00, 0xc8, 0xfe, 0xff, 0xff, 0x27, 0x00, 0x00, 0x00, 0x73, 0x65,
    0x71, 0x75, 0x65, 0x6e, 0x74, 0x69, 0x61, 0x6c, 0x2f, 0x64, 0x65, 0x6e, 0x73, 0x65, 0x2f, 0x42, 0x69, 0x61, 0x73,
    0x41, 0x64, 0x64, 0x2f, 0x52, 0x65, 0x61, 0x64, 0x56, 0x61, 0x72, 0x69, 0x61, 0x62, 0x6c, 0x65, 0x4f, 0x70, 0x00,
    0x01, 0x00, 0x00, 0x00, 0x10, 0x00, 0x00, 0x00, 0xaa, 0xff, 0xff, 0xff, 0x00, 0x00, 0x00, 0x01, 0x10, 0x00, 0x00,
    0x00, 0x10, 0x00, 0x00, 0x00, 0x03, 0x00, 0x00, 0x00, 0x38, 0x00, 0x00, 0x00, 0x18, 0xff, 0xff, 0xff, 0x29, 0x00,
    0x00, 0x00, 0x73, 0x65, 0x71, 0x75, 0x65, 0x6e, 0x74, 0x69, 0x61, 0x6c, 0x2f, 0x64, 0x65, 0x6e, 0x73, 0x65, 0x5f,
    0x32, 0x2f, 0x42, 0x69, 0x61, 0x73, 0x41, 0x64, 0x64, 0x2f, 0x52, 0x65, 0x61, 0x64, 0x56, 0x61, 0x72, 0x69, 0x61,
    0x62, 0x6c, 0x65, 0x4f, 0x70, 0x00, 0x00, 0x00, 0x01, 0x00, 0x00, 0x00, 0x01, 0x00, 0x00, 0x00, 0x00, 0x00, 0x16,
    0x00, 0x18, 0x00, 0x14, 0x00, 0x00, 0x00, 0x10, 0x00, 0x0c, 0x00, 0x08, 0x00, 0x00, 0x00, 0x00, 0x00, 0x00, 0x00,
    0x07, 0x00, 0x16, 0x00, 0x00, 0x00, 0x00, 0x00, 0x00, 0x01, 0x10, 0x00, 0x00, 0x00, 0x10, 0x00, 0x00, 0x00, 0x02,
    0x00, 0x00, 0x00, 0x38, 0x00, 0x00, 0x00, 0x84, 0xff, 0xff, 0xff, 0x29, 0x00, 0x00, 0x00, 0x73, 0x65, 0x71, 0x75,
    0x65, 0x6e, 0x74, 0x69, 0x61, 0x6c, 0x2f, 0x64, 0x65, 0x6e, 0x73, 0x65, 0x5f, 0x31, 0x2f, 0x42, 0x69, 0x61, 0x73,
    0x41, 0x64, 0x64, 0x2f, 0x52, 0x65, 0x61, 0x64, 0x56, 0x61, 0x72, 0x69, 0x61, 0x62, 0x6c, 0x65, 0x4f, 0x70, 0x00,
    0x00, 0x00, 0x01, 0x00, 0x00, 0x00, 0x10, 0x00, 0x00, 0x00, 0x00, 0x00, 0x16, 0x00, 0x1c, 0x00, 0x18, 0x00, 0x00,
    0x00, 0x14, 0x00, 0x10, 0x00, 0x0c, 0x00, 0x00, 0x00, 0x00, 0x00, 0x08, 0x00, 0x07, 0x00, 0x16, 0x00, 0x00, 0x00,
    0x00, 0x00, 0x00, 0x01, 0x14, 0x00, 0x00, 0x00, 0x20, 0x00, 0x00, 0x00, 0x20, 0x00, 0x00, 0x00, 0x01, 0x00, 0x00,
    0x00, 0x3c, 0x00, 0x00, 0x00, 0x02, 0x00, 0x00, 0x00, 0xff, 0xff, 0xff, 0xff, 0x01, 0x00, 0x00, 0x00, 0x04, 0x00,
    0x04, 0x00, 0x04, 0x00, 0x00, 0x00, 0x1d, 0x00, 0x00, 0x00, 0x73, 0x65, 0x72, 0x76, 0x69, 0x6e, 0x67, 0x5f, 0x64,
    0x65, 0x66, 0x61, 0x75, 0x6c, 0x74, 0x5f, 0x64, 0x65, 0x6e, 0x73, 0x65, 0x5f, 0x69, 0x6e, 0x70, 0x75, 0x74, 0x3a,
    0x30, 0x00, 0x00, 0x00, 0x02, 0x00, 0x00, 0x00, 0x01, 0x00, 0x00, 0x00, 0x01, 0x00, 0x00, 0x00, 0x01, 0x00, 0x00,
    0x00, 0x10, 0x00, 0x00, 0x00, 0x0c, 0x00, 0x0c, 0x00, 0x0b, 0x00, 0x00, 0x00, 0x00, 0x00, 0x04, 0x00, 0x0c, 0x00,
    0x00, 0x00, 0x09, 0x00, 0x00, 0x00, 0x00, 0x00, 0x00, 0x09};

static unsigned int hello_world_float_tflite_len = 3164;

unsigned char *model_get(void) {
    return hello_world_float_tflite;
}

size_t model_get_size(void) {
    return (size_t)hello_world_float_tflite_len;
}
